unsigned char model_int8_tflite[] = {
  0x1c, 0x00, 0x00, 0x00, 0x54, 0x46, 0x4c, 0x33, 0x14, 0x00, 0x20, 0x00,
  0x1c, 0x00, 0x18, 0x00, 0x14, 0x00, 0x10, 0x00, 0x0c, 0x00, 0x00, 0x00,
  0x08, 0x00, 0x04, 0x00, 0x14, 0x00, 0x00, 0x00, 0x1c, 0x00, 0x00, 0x00,
  0x80, 0x00, 0x00, 0x00, 0xd8, 0x00, 0x00, 0x00, 0xcc, 0x08, 0x00, 0x00,
  0xdc, 0x08, 0x00, 0x00, 0x88, 0x17, 0x00, 0x00, 0x03, 0x00, 0x00, 0x00,
  0x01, 0x00, 0x00, 0x00, 0x04, 0x00, 0x00, 0x00, 0xd6, 0xf6, 0xff, 0xff,
  0x0c, 0x00, 0x00, 0x00, 0x1c, 0x00, 0x00, 0x00, 0x38, 0x00, 0x00, 0x00,
  0x0f, 0x00, 0x00, 0x00, 0x73, 0x65, 0x72, 0x76, 0x69, 0x6e, 0x67, 0x5f,
  0x64, 0x65, 0x66, 0x61, 0x75, 0x6c, 0x74, 0x00, 0x01, 0x00, 0x00, 0x00,
  0x04, 0x00, 0x00, 0x00, 0x9c, 0xff, 0xff, 0xff, 0x11, 0x00, 0x00, 0x00,
  0x04, 0x00, 0x00, 0x00, 0x07, 0x00, 0x00, 0x00, 0x64, 0x65, 0x6e, 0x73,
  0x65, 0x5f, 0x31, 0x00, 0x01, 0x00, 0x00, 0x00, 0x04, 0x00, 0x00, 0x00,
  0xba, 0xf7, 0xff, 0xff, 0x04, 0x00, 0x00, 0x00, 0x07, 0x00, 0x00, 0x00,
  0x69, 0x6e, 0x70, 0x75, 0x74, 0x5f, 0x31, 0x00, 0x02, 0x00, 0x00, 0x00,
  0x34, 0x00, 0x00, 0x00, 0x04, 0x00, 0x00, 0x00, 0xdc, 0xff, 0xff, 0xff,
  0x14, 0x00, 0x00, 0x00, 0x04, 0x00, 0x00, 0x00, 0x13, 0x00, 0x00, 0x00,
  0x43, 0x4f, 0x4e, 0x56, 0x45, 0x52, 0x53, 0x49, 0x4f, 0x4e, 0x5f, 0x4d,
  0x45, 0x54, 0x41, 0x44, 0x41, 0x54, 0x41, 0x00, 0x08, 0x00, 0x0c, 0x00,
  0x08, 0x00, 0x04, 0x00, 0x08, 0x00, 0x00, 0x00, 0x13, 0x00, 0x00, 0x00,
  0x04, 0x00, 0x00, 0x00, 0x13, 0x00, 0x00, 0x00, 0x6d, 0x69, 0x6e, 0x5f,
  0x72, 0x75, 0x6e, 0x74, 0x69, 0x6d, 0x65, 0x5f, 0x76, 0x65, 0x72, 0x73,
  0x69, 0x6f, 0x6e, 0x00, 0x15, 0x00, 0x00, 0x00, 0xf0, 0x07, 0x00, 0x00,
  0xe8, 0x07, 0x00, 0x00, 0xd0, 0x07, 0x00, 0x00, 0xb4, 0x07, 0x00, 0x00,
  0x94, 0x07, 0x00, 0x00, 0x44, 0x07, 0x00, 0x00, 0x34, 0x06, 0x00, 0x00,
  0xe4, 0x05, 0x00, 0x00, 0x54, 0x01, 0x00, 0x00, 0x24, 0x01, 0x00, 0x00,
  0xcc, 0x00, 0x00, 0x00, 0xc4, 0x00, 0x00, 0x00, 0xbc, 0x00, 0x00, 0x00,
  0xb4, 0x00, 0x00, 0x00, 0xac, 0x00, 0x00, 0x00, 0xa4, 0x00, 0x00, 0x00,
  0x9c, 0x00, 0x00, 0x00, 0x94, 0x00, 0x00, 0x00, 0x8c, 0x00, 0x00, 0x00,
  0x6c, 0x00, 0x00, 0x00, 0x04, 0x00, 0x00, 0x00, 0x82, 0xf8, 0xff, 0xff,
  0x04, 0x00, 0x00, 0x00, 0x58, 0x00, 0x00, 0x00, 0x0c, 0x00, 0x00, 0x00,
  0x08, 0x00, 0x0e, 0x00, 0x08, 0x00, 0x04, 0x00, 0x08, 0x00, 0x00, 0x00,
  0x10, 0x00, 0x00, 0x00, 0x28, 0x00, 0x00, 0x00, 0x00, 0x00, 0x06, 0x00,
  0x08, 0x00, 0x04, 0x00, 0x06, 0x00, 0x00, 0x00, 0x04, 0x00, 0x00, 0x00,
  0x01, 0x00, 0x00, 0x00, 0xeb, 0x03, 0x00, 0x00, 0x00, 0x00, 0x0a, 0x00,
  0x10, 0x00, 0x0c, 0x00, 0x08, 0x00, 0x04, 0x00, 0x0a, 0x00, 0x00, 0x00,
  0x02, 0x00, 0x00, 0x00, 0x02, 0x00, 0x00, 0x00, 0x04, 0x00, 0x00, 0x00,
  0x06, 0x00, 0x00, 0x00, 0x32, 0x2e, 0x31, 0x30, 0x2e, 0x31, 0x00, 0x00,
  0xe6, 0xf8, 0xff, 0xff, 0x04, 0x00, 0x00, 0x00, 0x10, 0x00, 0x00, 0x00,
  0x31, 0x2e, 0x31, 0x34, 0x2e, 0x30, 0x00, 0x00, 0x00, 0x00, 0x00, 0x00,
  0x00, 0x00, 0x00, 0x00, 0x18, 0xeb, 0xff, 0xff, 0x1c, 0xeb, 0xff, 0xff,
  0x20, 0xeb, 0xff, 0xff, 0x24, 0xeb, 0xff, 0xff, 0x28, 0xeb, 0xff, 0xff,
  0x2c, 0xeb, 0xff, 0xff, 0x30, 0xeb, 0xff, 0xff, 0x34, 0xeb, 0xff, 0xff,
  0x22, 0xf9, 0xff, 0xff, 0x04, 0x00, 0x00, 0x00, 0x48, 0x00, 0x00, 0x00,
  0x2e, 0x52, 0xc5, 0x19, 0xfe, 0x81, 0x30, 0x3f, 0xe0, 0x11, 0xda, 0xbf,
  0x66, 0xfc, 0xaf, 0x75, 0x56, 0x81, 0x18, 0xc7, 0x94, 0xe4, 0xa4, 0x81,
  0xd4, 0x9c, 0x8b, 0x7f, 0x3c, 0xdc, 0x77, 0x4a, 0xaf, 0x74, 0x3c, 0xec,
  0x4e, 0xad, 0xb9, 0x21, 0x95, 0xc3, 0x09, 0x81, 0xdf, 0xe0, 0x76, 0xf1,
  0xfb, 0x63, 0xe2, 0xee, 0x7f, 0x38, 0xb2, 0x81, 0xff, 0x9b, 0xa0, 0xfe,
  0x94, 0x99, 0xe1, 0x3d, 0xd2, 0x7f, 0x54, 0xa9, 0x68, 0x0f, 0xcf, 0x53,
  0x76, 0xf9, 0xff, 0xff, 0x04, 0x00, 0x00, 0x00, 0x20, 0x00, 0x00, 0x00,
  0x59, 0xfd, 0xff, 0xff, 0xfa, 0x06, 0x00, 0x00, 0x4f, 0x17, 0x00, 0x00,
  0xf3, 0xe6, 0xff, 0xff, 0xe1, 0x16, 0x00, 0x00, 0x8e, 0x05, 0x00, 0x00,
  0x36, 0x07, 0x00, 0x00, 0x59, 0x0d, 0x00, 0x00, 0xa2, 0xf9, 0xff, 0xff,
  0x04, 0x00, 0x00, 0x00, 0x80, 0x04, 0x00, 0x00, 0xb9, 0x0d, 0xf7, 0xd9,
  0x22, 0xc4, 0x1d, 0xf9, 0x39, 0x27, 0x3a, 0xfd, 0xc6, 0x1d, 0xed, 0xf9,
  0x2e, 0x11, 0x1a, 0x0a, 0x08, 0x81, 0xbf, 0x0b, 0x01, 0x19, 0xca, 0x20,
  0x17, 0x0c, 0x09, 0x0a, 0x34, 0xee, 0x3e, 0x20, 0x18, 0x1d, 0x19, 0x1d,
  0xf8, 0x15, 0x2e, 0x1b, 0x11, 0xcd, 0xdc, 0xf1, 0xc7, 0x29, 0xdf, 0x00,
  0x26, 0xc7, 0xb4, 0x13, 0xed, 0xec, 0x06, 0x02, 0xe8, 0xef, 0xf2, 0xd5,
  0x0d, 0x20, 0x15, 0x1b, 0x11, 0xb9, 0xb4, 0x08, 0x68, 0x22, 0xa5, 0x24,
  0x51, 0xe1, 0xe5, 0x32, 0x16, 0x5d, 0x4b, 0xd2, 0x2b, 0x86, 0xf1, 0xd8,
  0xd0, 0x1b, 0x1a, 0x26, 0x21, 0x7f, 0xb8, 0xeb, 0x5b, 0x70, 0xb9, 0x40,
  0xfa, 0xc3, 0xc8, 0xef, 0x00, 0x1e, 0x44, 0xc4, 0xde, 0x97, 0x1b, 0x19,
  0x51, 0x5d, 0x99, 0x54, 0x92, 0x33, 0xbf, 0x57, 0xe3, 0x07, 0xf5, 0x32,
  0xd7, 0xd8, 0x1e, 0x4c, 0x58, 0x3c, 0x4c, 0xea, 0x3e, 0xfb, 0xb4, 0x59,
  0xf5, 0x68, 0x9f, 0x13, 0x1f, 0x43, 0x82, 0x3e, 0x17, 0x07, 0x15, 0x45,
  0x07, 0xba, 0x25, 0x3c, 0x1f, 0x48, 0x26, 0xf8, 0xff, 0xf4, 0xf2, 0xa5,
  0x1d, 0x2f, 0x14, 0xbf, 0xed, 0xff, 0xd1, 0xaf, 0x2d, 0xf1, 0x23, 0x43,
  0xfb, 0xb2, 0x16, 0xf7, 0x22, 0x44, 0x26, 0xee, 0xfe, 0x30, 0xdd, 0xe2,
  0x18, 0xd1, 0x05, 0xae, 0xa2, 0xf7, 0xf9, 0xc4, 0x29, 0xf8, 0x16, 0x03,
  0x04, 0xd0, 0x25, 0x06, 0x76, 0x21, 0x5b, 0x17, 0xe4, 0x2a, 0xb4, 0xe3,
  0x1b, 0xd5, 0xce, 0x8f, 0x81, 0xf8, 0xb9, 0xf2, 0xeb, 0xf1, 0x15, 0x98,
  0xf7, 0xe5, 0x11, 0xc4, 0x1f, 0xdb, 0xfb, 0x13, 0xcf, 0x03, 0x0e, 0xf2,
  0x23, 0x0a, 0x18, 0x09, 0x3a, 0xd5, 0x22, 0x29, 0xce, 0x21, 0x06, 0xcd,
  0xec, 0x07, 0xb8, 0xc8, 0x10, 0x11, 0x2a, 0x01, 0xe6, 0x19, 0x12, 0x02,
  0x17, 0x28, 0x1b, 0x1a, 0x19, 0xb8, 0xf4, 0x1b, 0x07, 0x1a, 0xd7, 0xec,
  0xe4, 0x0e, 0x81, 0xf9, 0x0d, 0xe8, 0xeb, 0x0b, 0x15, 0x0d, 0xd5, 0xe9,
  0xe3, 0x41, 0x0d, 0xf8, 0x4c, 0x93, 0x2a, 0x05, 0x03, 0x2a, 0x40, 0x2a,
  0x50, 0x06, 0x55, 0x27, 0xf9, 0x0c, 0xe6, 0xe1, 0xee, 0x12, 0x2f, 0xf0,
  0xe8, 0xef, 0x29, 0xe9, 0x47, 0xc7, 0x25, 0x0b, 0xfc, 0x00, 0x23, 0x19,
  0x4f, 0x17, 0x4e, 0xf2, 0xdd, 0xe3, 0xf8, 0x1a, 0x0e, 0x40, 0x34, 0x11,
  0xfe, 0x1e, 0x23, 0xf4, 0x37, 0xff, 0x4d, 0x01, 0xf0, 0x26, 0x56, 0x3b,
  0x3d, 0x19, 0x7f, 0x11, 0x19, 0xfc, 0x1c, 0xdc, 0x04, 0x1a, 0x38, 0x03,
  0xec, 0x0b, 0x43, 0xca, 0x20, 0xeb, 0x18, 0x27, 0x36, 0x07, 0xfe, 0x1a,
  0x31, 0x19, 0x18, 0x29, 0x20, 0x29, 0x1a, 0xd5, 0x25, 0xcc, 0xe7, 0x20,
  0x2b, 0x34, 0xec, 0x21, 0xd0, 0x52, 0xd9, 0x04, 0xee, 0x21, 0x16, 0x19,
  0xea, 0xf9, 0xe9, 0xf5, 0x01, 0xfd, 0x2e, 0x09, 0x14, 0xa9, 0xe4, 0xd0,
  0xfa, 0xed, 0xdd, 0x10, 0x06, 0x33, 0xba, 0x1e, 0x1d, 0x1b, 0xb4, 0xe6,
  0xd2, 0x04, 0x81, 0x1a, 0xf2, 0x44, 0xe0, 0x27, 0xf6, 0xe5, 0xc3, 0x07,
  0x25, 0xfe, 0xec, 0xfd, 0x14, 0x2e, 0x07, 0x3b, 0x28, 0x0c, 0x27, 0x1b,
  0x07, 0x02, 0xeb, 0x23, 0x09, 0x1b, 0x25, 0xf8, 0xfe, 0xde, 0xde, 0xd9,
  0x35, 0xf6, 0xfd, 0x21, 0xca, 0x40, 0xd9, 0xfb, 0x3c, 0x33, 0x36, 0xf6,
  0x24, 0x1a, 0xe0, 0x16, 0xdc, 0x3e, 0x23, 0xfc, 0xf1, 0xce, 0xdb, 0xf7,
  0x14, 0x22, 0xf3, 0xf8, 0xc5, 0x59, 0xda, 0x14, 0xef, 0xff, 0xdd, 0x0d,
  0x1a, 0xe5, 0xae, 0x26, 0x23, 0x23, 0xd7, 0xfb, 0xe6, 0xfc, 0x81, 0x1a,
  0x23, 0xf3, 0xea, 0xe8, 0xe8, 0x36, 0xd2, 0xfa, 0xf9, 0xe3, 0x07, 0xb7,
  0xed, 0x06, 0xd5, 0x2a, 0xa9, 0xf3, 0xe3, 0xf3, 0x17, 0xba, 0x1f, 0x03,
  0x01, 0x2d, 0x4a, 0xbe, 0x32, 0x06, 0xf8, 0xfb, 0xfa, 0xe1, 0x30, 0x81,
  0x38, 0xfd, 0xff, 0x1a, 0xe2, 0x16, 0xfd, 0x06, 0x1b, 0xa4, 0x19, 0xf0,
  0xde, 0x32, 0x53, 0xd2, 0xfb, 0xeb, 0x36, 0xb6, 0xf0, 0x07, 0xfb, 0x91,
  0x23, 0xd7, 0xfc, 0x45, 0xb4, 0xec, 0x27, 0xf5, 0xf0, 0xc1, 0x16, 0xdf,
  0x2c, 0x40, 0x29, 0xba, 0x04, 0x07, 0x00, 0xbc, 0x1f, 0x00, 0x1e, 0x1f,
  0x40, 0x21, 0x71, 0xf3, 0xfc, 0xec, 0xe1, 0xf8, 0xd5, 0xe7, 0x2d, 0xfd,
  0x05, 0xd8, 0x1a, 0xf4, 0x3e, 0xee, 0x2b, 0x0a, 0x29, 0x44, 0x2a, 0x16,
  0x33, 0x23, 0x44, 0x0e, 0x08, 0xba, 0xc0, 0xdb, 0xf0, 0x26, 0x0b, 0x0d,
  0x29, 0x07, 0xfd, 0x1d, 0xfd, 0xd9, 0x25, 0xf8, 0xf5, 0x2d, 0x62, 0x1c,
  0x42, 0x31, 0x7f, 0xe9, 0xde, 0xe9, 0x0a, 0xef, 0xe2, 0x33, 0x0f, 0x02,
  0xfd, 0xdf, 0xfc, 0xee, 0x24, 0xd5, 0x3a, 0x1b, 0x40, 0xe9, 0x1a, 0xe5,
  0xd1, 0x51, 0xad, 0x32, 0x24, 0x34, 0x0e, 0x21, 0x22, 0x0f, 0x24, 0x4e,
  0xbf, 0xcc, 0xa2, 0xad, 0xd1, 0xd4, 0xf4, 0x3a, 0x1a, 0x20, 0xda, 0xde,
  0x1c, 0x21, 0xd1, 0x00, 0xe4, 0x03, 0xda, 0x13, 0x28, 0xef, 0xc7, 0x52,
  0xb6, 0xa9, 0xb2, 0xb8, 0xfa, 0xe3, 0xce, 0xf0, 0x25, 0x1f, 0xc0, 0xde,
  0x0d, 0x57, 0x05, 0x21, 0xdb, 0x4e, 0xd1, 0x36, 0x2f, 0xfc, 0x02, 0x3b,
  0xa7, 0x81, 0x8b, 0xfa, 0xd7, 0xbf, 0xef, 0x07, 0x40, 0x41, 0x30, 0x05,
  0x12, 0x2f, 0xc6, 0x23, 0x12, 0x4f, 0xe4, 0x4e, 0xf7, 0x2f, 0xf5, 0x36,
  0x05, 0x62, 0x25, 0x0e, 0x16, 0x35, 0xf3, 0xea, 0x41, 0x2e, 0xcb, 0x25,
  0x29, 0xd3, 0xe1, 0xeb, 0x28, 0x0c, 0xeb, 0x3a, 0x0c, 0xce, 0xc6, 0x5f,
  0x42, 0x08, 0x25, 0xfa, 0x01, 0x6b, 0x0c, 0x44, 0xee, 0x3d, 0x26, 0x1b,
  0x2a, 0x2b, 0x9a, 0x32, 0x1e, 0x14, 0x0b, 0xd2, 0x3e, 0xdc, 0x06, 0x07,
  0x19, 0x65, 0xe8, 0xf7, 0x33, 0x7f, 0x02, 0x19, 0xd7, 0x10, 0x17, 0xcf,
  0x32, 0x14, 0xed, 0xf2, 0xd5, 0xee, 0x29, 0xd0, 0x1f, 0xb6, 0x1b, 0x02,
  0xf5, 0xf9, 0x2e, 0xe5, 0x05, 0x23, 0x26, 0xfa, 0xbd, 0xfc, 0x0a, 0x8f,
  0x28, 0x11, 0xdd, 0xfe, 0xc4, 0x04, 0xe9, 0xd2, 0x1a, 0xcb, 0x01, 0x09,
  0x04, 0x03, 0x35, 0xb5, 0x22, 0x13, 0x02, 0xd7, 0xe7, 0xf8, 0x0b, 0x81,
  0xe6, 0xfa, 0xcd, 0x30, 0xec, 0x12, 0xda, 0x14, 0xe7, 0xf8, 0x0a, 0xf9,
  0x04, 0x15, 0x2b, 0xe4, 0x2c, 0x00, 0x02, 0xdf, 0x0d, 0x2f, 0x29, 0x16,
  0x34, 0x0c, 0x6a, 0xa7, 0xc2, 0xd4, 0xdc, 0xb9, 0xd7, 0x34, 0x1b, 0xfb,
  0x0c, 0x1b, 0x0d, 0x1a, 0x5e, 0x1d, 0xec, 0x39, 0x0b, 0xfb, 0x49, 0x08,
  0x15, 0xe5, 0x7f, 0xd2, 0xb5, 0xba, 0xde, 0xd2, 0x01, 0x04, 0x10, 0xf0,
  0x17, 0x1c, 0xf2, 0x1c, 0x4e, 0x1e, 0x13, 0x07, 0xf9, 0x1e, 0x30, 0x0a,
  0x4a, 0x06, 0x6a, 0xc2, 0xf7, 0x97, 0xd1, 0x9c, 0xd1, 0x01, 0xfe, 0xe8,
  0xf6, 0x05, 0x07, 0x2a, 0x1d, 0x27, 0x0f, 0x20, 0xd0, 0x00, 0xb7, 0x3d,
  0xdc, 0x54, 0x28, 0xaf, 0x89, 0xc3, 0xc1, 0x9d, 0x60, 0x9d, 0xe8, 0xd1,
  0xd4, 0xe4, 0x2e, 0xea, 0xa1, 0x02, 0x40, 0x3e, 0x95, 0xb8, 0xcf, 0xa9,
  0x01, 0xf1, 0x08, 0x38, 0x61, 0x45, 0x85, 0xf2, 0x81, 0x5f, 0xaa, 0xba,
  0xfd, 0x09, 0xf7, 0xb8, 0xe7, 0x14, 0x27, 0xb3, 0xbb, 0xe7, 0xad, 0xe0,
  0xe8, 0xd5, 0xd3, 0xea, 0x8f, 0x25, 0xfe, 0x9e, 0xb6, 0xad, 0x3c, 0x2e,
  0x14, 0x53, 0xe8, 0x13, 0xc1, 0x47, 0x95, 0xe4, 0xb6, 0xd5, 0x2e, 0x81,
  0xf3, 0xc6, 0xfa, 0xdb, 0x25, 0x3a, 0xd7, 0xfd, 0xc7, 0xf3, 0xe9, 0xe3,
  0xfa, 0x26, 0x6b, 0x4e, 0x28, 0x94, 0x21, 0x03, 0x17, 0x4d, 0xdd, 0x84,
  0x18, 0xf8, 0xb6, 0xf4, 0x53, 0x06, 0xe8, 0x4b, 0xf9, 0x15, 0xea, 0x17,
  0xf0, 0x55, 0x5e, 0x3a, 0x18, 0x97, 0x35, 0x58, 0xd8, 0x4c, 0xd2, 0xc2,
  0xdb, 0x2b, 0x89, 0xea, 0x1f, 0x10, 0x05, 0xeb, 0xf2, 0x02, 0xee, 0x45,
  0xf4, 0x1b, 0x11, 0x01, 0x3e, 0x8f, 0x1d, 0x24, 0x59, 0x33, 0xf8, 0xb9,
  0x81, 0xe1, 0x25, 0x52, 0xc4, 0x08, 0xf9, 0x0a, 0x1e, 0x99, 0xc5, 0x34,
  0xee, 0x83, 0x40, 0xe1, 0x87, 0x30, 0x4b, 0x3d, 0xd6, 0x27, 0x17, 0xc6,
  0x9a, 0x9a, 0x2c, 0xee, 0xbf, 0xf3, 0x8e, 0x8d, 0x0f, 0xe6, 0xb6, 0x35,
  0xfd, 0xf8, 0x05, 0xb1, 0xd1, 0x82, 0x4e, 0x41, 0xf1, 0x9c, 0xc0, 0xb7,
  0xf9, 0xdb, 0x09, 0x2d, 0x84, 0x09, 0xac, 0x01, 0x63, 0x07, 0x8a, 0xf1,
  0xcc, 0x3f, 0x96, 0x01, 0x05, 0x08, 0xb5, 0xfb, 0x2e, 0xfe, 0xff, 0xff,
  0x04, 0x00, 0x00, 0x00, 0x40, 0x00, 0x00, 0x00, 0x1a, 0x01, 0x00, 0x00,
  0xc2, 0xfe, 0xff, 0xff, 0x3c, 0xfe, 0xff, 0xff, 0x23, 0x03, 0x00, 0x00,
  0x96, 0x02, 0x00, 0x00, 0xdd, 0xfc, 0xff, 0xff, 0xb1, 0xff, 0xff, 0xff,
  0x77, 0x03, 0x00, 0x00, 0xb0, 0x01, 0x00, 0x00, 0x70, 0x0d, 0x00, 0x00,
  0x7e, 0x04, 0x00, 0x00, 0x13, 0x03, 0x00, 0x00, 0xb2, 0x04, 0x00, 0x00,
  0x0b, 0xfc, 0xff, 0xff, 0xe5, 0x02, 0x00, 0x00, 0x0f, 0xfc, 0xff, 0xff,
  0x7a, 0xfe, 0xff, 0xff, 0x04, 0x00, 0x00, 0x00, 0x00, 0x01, 0x00, 0x00,
  0xcf, 0x09, 0xff, 0x04, 0xe0, 0x00, 0x24, 0xd2, 0x0f, 0xf1, 0xf8, 0x0f,
  0xee, 0xd1, 0xd5, 0x2b, 0x2d, 0x3e, 0x06, 0x34, 0xee, 0x22, 0x22, 0x18,
  0x01, 0xb9, 0x0f, 0x52, 0xcd, 0xe0, 0x1b, 0x2b, 0xe4, 0x22, 0xce, 0x04,
  0xd4, 0x1f, 0x32, 0x81, 0xe8, 0x4b, 0x24, 0xce, 0x07, 0xe7, 0xf6, 0x1d,
  0xdd, 0x2b, 0xee, 0xe4, 0x07, 0x08, 0xea, 0xf0, 0xdd, 0xeb, 0xfe, 0x0d,
  0x23, 0xfe, 0x0b, 0x2d, 0x3d, 0x39, 0x32, 0x33, 0x14, 0xfb, 0x35, 0x3b,
  0xc9, 0xd4, 0x04, 0x4a, 0xc1, 0x10, 0x46, 0x08, 0x23, 0x49, 0x35, 0x55,
  0x05, 0x4b, 0x44, 0x43, 0xc1, 0xfb, 0x0a, 0x5b, 0xb6, 0xe3, 0x18, 0x2d,
  0xf1, 0xda, 0xee, 0x01, 0x01, 0xda, 0x2d, 0x29, 0xe7, 0xd5, 0xe3, 0xf7,
  0xf9, 0x1d, 0xfc, 0xf6, 0x02, 0x22, 0xe8, 0xf1, 0xde, 0x24, 0x23, 0x90,
  0xea, 0x59, 0xff, 0xd4, 0x43, 0x2d, 0xc8, 0xe5, 0xf7, 0xd4, 0xdc, 0xd8,
  0x40, 0xcb, 0xb9, 0x01, 0xfa, 0x2b, 0x15, 0xc0, 0x41, 0xe7, 0x16, 0xe7,
  0x47, 0x52, 0x3f, 0x58, 0xed, 0x39, 0x1b, 0x09, 0xd2, 0xe4, 0x0d, 0x65,
  0xe0, 0x0d, 0x29, 0x14, 0xf7, 0x43, 0x39, 0x06, 0xd6, 0x45, 0x10, 0x0b,
  0x16, 0xed, 0xfa, 0x67, 0xeb, 0x17, 0x43, 0xe8, 0x15, 0x15, 0x38, 0x52,
  0xec, 0x06, 0x15, 0x26, 0xd0, 0x05, 0x30, 0x64, 0xd5, 0x2b, 0x2c, 0x2c,
  0x47, 0x03, 0x09, 0x14, 0xf9, 0x2d, 0x2a, 0x10, 0xfe, 0xbb, 0x1a, 0x45,
  0xbe, 0xd1, 0x2a, 0x1e, 0x39, 0x2b, 0x22, 0x25, 0xdc, 0x23, 0x19, 0x18,
  0xcf, 0xbd, 0x36, 0x41, 0x08, 0x19, 0x39, 0xdb, 0xd6, 0xd6, 0xbb, 0xeb,
  0x2f, 0xc1, 0x0b, 0xcc, 0x4d, 0x62, 0x0c, 0xcb, 0x26, 0xe0, 0xd4, 0xe0,
  0x04, 0xe2, 0xf6, 0xd2, 0xfc, 0x24, 0xf9, 0xe8, 0x20, 0xe4, 0xdb, 0x07,
  0x18, 0x06, 0xd9, 0xd3, 0x86, 0xff, 0xff, 0xff, 0x04, 0x00, 0x00, 0x00,
  0x40, 0x00, 0x00, 0x00, 0x39, 0xfe, 0xff, 0xff, 0x12, 0x01, 0x00, 0x00,
  0x05, 0x06, 0x00, 0x00, 0x41, 0xff, 0xff, 0xff, 0xae, 0xfe, 0xff, 0xff,
  0xaf, 0xfe, 0xff, 0xff, 0x00, 0x00, 0x00, 0x00, 0xf1, 0x06, 0x00, 0x00,
  0x32, 0x03, 0x00, 0x00, 0x5c, 0x00, 0x00, 0x00, 0x1d, 0xfe, 0xff, 0xff,
  0x6f, 0xff, 0xff, 0xff, 0x45, 0x00, 0x00, 0x00, 0xae, 0x01, 0x00, 0x00,
  0xed, 0x04, 0x00, 0x00, 0x34, 0xff, 0xff, 0xff, 0xd2, 0xff, 0xff, 0xff,
  0x04, 0x00, 0x00, 0x00, 0x10, 0x00, 0x00, 0x00, 0x1b, 0x68, 0x95, 0x1d,
  0x54, 0x70, 0xcc, 0x81, 0x97, 0x4e, 0x57, 0x5a, 0x66, 0x51, 0xb5, 0x15,
  0xee, 0xff, 0xff, 0xff, 0x04, 0x00, 0x00, 0x00, 0x04, 0x00, 0x00, 0x00,
  0x23, 0xfc, 0xff, 0xff, 0x00, 0x00, 0x06, 0x00, 0x08, 0x00, 0x04, 0x00,
  0x06, 0x00, 0x00, 0x00, 0x04, 0x00, 0x00, 0x00, 0x08, 0x00, 0x00, 0x00,
  0x01, 0x00, 0x00, 0x00, 0x02, 0x00, 0x00, 0x00, 0x30, 0xf2, 0xff, 0xff,
  0x34, 0xf2, 0xff, 0xff, 0x0f, 0x00, 0x00, 0x00, 0x4d, 0x4c, 0x49, 0x52,
  0x20, 0x43, 0x6f, 0x6e, 0x76, 0x65, 0x72, 0x74, 0x65, 0x64, 0x2e, 0x00,
  0x01, 0x00, 0x00, 0x00, 0x14, 0x00, 0x00, 0x00, 0x00, 0x00, 0x0e, 0x00,
  0x18, 0x00, 0x14, 0x00, 0x10, 0x00, 0x0c, 0x00, 0x08, 0x00, 0x04, 0x00,
  0x0e, 0x00, 0x00, 0x00, 0x14, 0x00, 0x00, 0x00, 0x1c, 0x00, 0x00, 0x00,
  0x40, 0x02, 0x00, 0x00, 0x44, 0x02, 0x00, 0x00, 0x48, 0x02, 0x00, 0x00,
  0x04, 0x00, 0x00, 0x00, 0x6d, 0x61, 0x69, 0x6e, 0x00, 0x00, 0x00, 0x00,
  0x08, 0x00, 0x00, 0x00, 0xdc, 0x01, 0x00, 0x00, 0x78, 0x01, 0x00, 0x00,
  0x28, 0x01, 0x00, 0x00, 0xe4, 0x00, 0x00, 0x00, 0xb0, 0x00, 0x00, 0x00,
  0x6c, 0x00, 0x00, 0x00, 0x34, 0x00, 0x00, 0x00, 0x10, 0x00, 0x00, 0x00,
  0x00, 0x00, 0x0a, 0x00, 0x10, 0x00, 0x0c, 0x00, 0x08, 0x00, 0x04, 0x00,
  0x0a, 0x00, 0x00, 0x00, 0x0c, 0x00, 0x00, 0x00, 0x10, 0x00, 0x00, 0x00,
  0x04, 0x00, 0x00, 0x00, 0x01, 0x00, 0x00, 0x00, 0x11, 0x00, 0x00, 0x00,
  0x01, 0x00, 0x00, 0x00, 0x10, 0x00, 0x00, 0x00, 0xde, 0xfe, 0xff, 0xff,
  0x14, 0x00, 0x00, 0x00, 0x00, 0x00, 0x00, 0x08, 0x10, 0x00, 0x00, 0x00,
  0x14, 0x00, 0x00, 0x00, 0x03, 0x00, 0x00, 0x00, 0xf0, 0xf2, 0xff, 0xff,
  0x01, 0x00, 0x00, 0x00, 0x10, 0x00, 0x00, 0x00, 0x03, 0x00, 0x00, 0x00,
  0x0f, 0x00, 0x00, 0x00, 0x03, 0x00, 0x00, 0x00, 0x02, 0x00, 0x00, 0x00,
  0x12, 0xff, 0xff, 0xff, 0x1c, 0x00, 0x00, 0x00, 0x00, 0x00, 0x00, 0x08,
  0x1c, 0x00, 0x00, 0x00, 0x20, 0x00, 0x00, 0x00, 0x03, 0x00, 0x00, 0x00,
  0x00, 0x00, 0x06, 0x00, 0x08, 0x00, 0x07, 0x00, 0x06, 0x00, 0x00, 0x00,
  0x00, 0x00, 0x00, 0x01, 0x01, 0x00, 0x00, 0x00, 0x0f, 0x00, 0x00, 0x00,
  0x03, 0x00, 0x00, 0x00, 0x0e, 0x00, 0x00, 0x00, 0x05, 0x00, 0x00, 0x00,
  0x04, 0x00, 0x00, 0x00, 0x52, 0xff, 0xff, 0xff, 0x14, 0x00, 0x00, 0x00,
  0x00, 0x00, 0x00, 0x1b, 0x10, 0x00, 0x00, 0x00, 0x14, 0x00, 0x00, 0x00,
  0x02, 0x00, 0x00, 0x00, 0x64, 0xf3, 0xff, 0xff, 0x01, 0x00, 0x00, 0x00,
  0x0e, 0x00, 0x00, 0x00, 0x02, 0x00, 0x00, 0x00, 0x0d, 0x00, 0x00, 0x00,
  0x01, 0x00, 0x00, 0x00, 0x82, 0xff, 0xff, 0xff, 0x14, 0x00, 0x00, 0x00,
  0x00, 0x00, 0x00, 0x05, 0x24, 0x00, 0x00, 0x00, 0x28, 0x00, 0x00, 0x00,
  0x01, 0x00, 0x00, 0x00, 0x72, 0xff, 0xff, 0xff, 0x02, 0x00, 0x00, 0x00,
  0x02, 0x00, 0x00, 0x00, 0x02, 0x00, 0x00, 0x00, 0x02, 0x00, 0x00, 0x00,
  0x00, 0x00, 0x00, 0x01, 0x01, 0x00, 0x00, 0x00, 0x0d, 0x00, 0x00, 0x00,
  0x01, 0x00, 0x00, 0x00, 0x0c, 0x00, 0x00, 0x00, 0x62, 0xff, 0xff, 0xff,
  0x10, 0x00, 0x00, 0x00, 0x00, 0x00, 0x00, 0x01, 0x18, 0x00, 0x00, 0x00,
  0x1c, 0x00, 0x00, 0x00, 0x54, 0xff, 0xff, 0xff, 0x00, 0x00, 0x00, 0x01,
  0x01, 0x00, 0x00, 0x00, 0x01, 0x00, 0x00, 0x00, 0x01, 0x00, 0x00, 0x00,
  0x0c, 0x00, 0x00, 0x00, 0x03, 0x00, 0x00, 0x00, 0x0b, 0x00, 0x00, 0x00,
  0x07, 0x00, 0x00, 0x00, 0x06, 0x00, 0x00, 0x00, 0x00, 0x00, 0x0e, 0x00,
  0x1a, 0x00, 0x14, 0x00, 0x10, 0x00, 0x0c, 0x00, 0x0b, 0x00, 0x04, 0x00,
  0x0e, 0x00, 0x00, 0x00, 0x24, 0x00, 0x00, 0x00, 0x00, 0x00, 0x00, 0x05,
  0x34, 0x00, 0x00, 0x00, 0x38, 0x00, 0x00, 0x00, 0x01, 0x00, 0x00, 0x00,
  0x00, 0x00, 0x0e, 0x00, 0x18, 0x00, 0x17, 0x00, 0x10, 0x00, 0x0c, 0x00,
  0x08, 0x00, 0x04, 0x00, 0x0e, 0x00, 0x00, 0x00, 0x02, 0x00, 0x00, 0x00,
  0x02, 0x00, 0x00, 0x00, 0x02, 0x00, 0x00, 0x00, 0x02, 0x00, 0x00, 0x00,
  0x00, 0x00, 0x00, 0x01, 0x01, 0x00, 0x00, 0x00, 0x0b, 0x00, 0x00, 0x00,
  0x01, 0x00, 0x00, 0x00, 0x0a, 0x00, 0x00, 0x00, 0x00, 0x00, 0x0e, 0x00,
  0x14, 0x00, 0x00, 0x00, 0x10, 0x00, 0x0c, 0x00, 0x0b, 0x00, 0x04, 0x00,
  0x0e, 0x00, 0x00, 0x00, 0x1c, 0x00, 0x00, 0x00, 0x00, 0x00, 0x00, 0x01,
  0x24, 0x00, 0x00, 0x00, 0x28, 0x00, 0x00, 0x00, 0x0c, 0x00, 0x10, 0x00,
  0x00, 0x00, 0x0c, 0x00, 0x08, 0x00, 0x07, 0x00, 0x0c, 0x00, 0x00, 0x00,
  0x00, 0x00, 0x00, 0x01, 0x01, 0x00, 0x00, 0x00, 0x01, 0x00, 0x00, 0x00,
  0x01, 0x00, 0x00, 0x00, 0x0a, 0x00, 0x00, 0x00, 0x03, 0x00, 0x00, 0x00,
  0x00, 0x00, 0x00, 0x00, 0x09, 0x00, 0x00, 0x00, 0x08, 0x00, 0x00, 0x00,
  0x01, 0x00, 0x00, 0x00, 0x11, 0x00, 0x00, 0x00, 0x01, 0x00, 0x00, 0x00,
  0x00, 0x00, 0x00, 0x00, 0x12, 0x00, 0x00, 0x00, 0xa4, 0x0b, 0x00, 0x00,
  0x1c, 0x0b, 0x00, 0x00, 0x88, 0x0a, 0x00, 0x00, 0x1c, 0x0a, 0x00, 0x00,
  0xa8, 0x09, 0x00, 0x00, 0x3c, 0x09, 0x00, 0x00, 0x10, 0x08, 0x00, 0x00,
  0xe4, 0x06, 0x00, 0x00, 0x18, 0x06, 0x00, 0x00, 0x4c, 0x05, 0x00, 0x00,
  0x68, 0x04, 0x00, 0x00, 0xd4, 0x03, 0x00, 0x00, 0xe8, 0x02, 0x00, 0x00,
  0x54, 0x02, 0x00, 0x00, 0xc8, 0x01, 0x00, 0x00, 0x1c, 0x01, 0x00, 0x00,
  0x80, 0x00, 0x00, 0x00, 0x04, 0x00, 0x00, 0x00, 0xba, 0xf4, 0xff, 0xff,
  0x00, 0x00, 0x00, 0x01, 0x18, 0x00, 0x00, 0x00, 0x20, 0x00, 0x00, 0x00,
  0x3c, 0x00, 0x00, 0x00, 0x12, 0x00, 0x00, 0x00, 0x00, 0x00, 0x00, 0x09,
  0x50, 0x00, 0x00, 0x00, 0x02, 0x00, 0x00, 0x00, 0xff, 0xff, 0xff, 0xff,
  0x01, 0x00, 0x00, 0x00, 0x9c, 0xf4, 0xff, 0xff, 0x08, 0x00, 0x00, 0x00,
  0x10, 0x00, 0x00, 0x00, 0x01, 0x00, 0x00, 0x00, 0x80, 0xff, 0xff, 0xff,
  0xff, 0xff, 0xff, 0xff, 0x01, 0x00, 0x00, 0x00, 0x00, 0x00, 0x80, 0x3b,
  0x19, 0x00, 0x00, 0x00, 0x53, 0x74, 0x61, 0x74, 0x65, 0x66, 0x75, 0x6c,
  0x50, 0x61, 0x72, 0x74, 0x69, 0x74, 0x69, 0x6f, 0x6e, 0x65, 0x64, 0x43,
  0x61, 0x6c, 0x6c, 0x3a, 0x30, 0x00, 0x00, 0x00, 0x02, 0x00, 0x00, 0x00,
  0x01, 0x00, 0x00, 0x00, 0x01, 0x00, 0x00, 0x00, 0x32, 0xf5, 0xff, 0xff,
  0x00, 0x00, 0x00, 0x01, 0x18, 0x00, 0x00, 0x00, 0x20, 0x00, 0x00, 0x00,
  0x40, 0x00, 0x00, 0x00, 0x11, 0x00, 0x00, 0x00, 0x00, 0x00, 0x00, 0x09,
  0x70, 0x00, 0x00, 0x00, 0x02, 0x00, 0x00, 0x00, 0xff, 0xff, 0xff, 0xff,
  0x01, 0x00, 0x00, 0x00, 0x14, 0xf5, 0xff, 0xff, 0x08, 0x00, 0x00, 0x00,
  0x14, 0x00, 0x00, 0x00, 0x01, 0x00, 0x00, 0x00, 0x92, 0xff, 0xff, 0xff,
  0xff, 0xff, 0xff, 0xff, 0x00, 0x00, 0x00, 0x00, 0x01, 0x00, 0x00, 0x00,
  0x07, 0x61, 0x12, 0x3d, 0x34, 0x00, 0x00, 0x00, 0x73, 0x65, 0x71, 0x75,
  0x65, 0x6e, 0x74, 0x69, 0x61, 0x6c, 0x2f, 0x64, 0x65, 0x6e, 0x73, 0x65,
  0x5f, 0x31, 0x2f, 0x4d, 0x61, 0x74, 0x4d, 0x75, 0x6c, 0x3b, 0x73, 0x65,
  0x71, 0x75, 0x65, 0x6e, 0x74, 0x69, 0x61, 0x6c, 0x2f, 0x64, 0x65, 0x6e,
  0x73, 0x65, 0x5f, 0x31, 0x2f, 0x42, 0x69, 0x61, 0x73, 0x41, 0x64, 0x64,
  0x00, 0x00, 0x00, 0x00, 0x02, 0x00, 0x00, 0x00, 0x01, 0x00, 0x00, 0x00,
  0x01, 0x00, 0x00, 0x00, 0xca, 0xf5, 0xff, 0xff, 0x00, 0x00, 0x00, 0x01,
  0x18, 0x00, 0x00, 0x00, 0x20, 0x00, 0x00, 0x00, 0x40, 0x00, 0x00, 0x00,
  0x10, 0x00, 0x00, 0x00, 0x00, 0x00, 0x00, 0x09, 0x80, 0x00, 0x00, 0x00,
  0x02, 0x00, 0x00, 0x00, 0xff, 0xff, 0xff, 0xff, 0x10, 0x00, 0x00, 0x00,
  0xac, 0xf5, 0xff, 0xff, 0x08, 0x00, 0x00, 0x00, 0x14, 0x00, 0x00, 0x00,
  0x01, 0x00, 0x00, 0x00, 0x80, 0xff, 0xff, 0xff, 0xff, 0xff, 0xff, 0xff,
  0x00, 0x00, 0x00, 0x00, 0x01, 0x00, 0x00, 0x00, 0x56, 0xac, 0x28, 0x3c,
  0x46, 0x00, 0x00, 0x00, 0x73, 0x65, 0x71, 0x75, 0x65, 0x6e, 0x74, 0x69,
  0x61, 0x6c, 0x2f, 0x64, 0x65, 0x6e, 0x73, 0x65, 0x2f, 0x4d, 0x61, 0x74,
  0x4d, 0x75, 0x6c, 0x3b, 0x73, 0x65, 0x71, 0x75, 0x65, 0x6e, 0x74, 0x69,
  0x61, 0x6c, 0x2f, 0x64, 0x65, 0x6e, 0x73, 0x65, 0x2f, 0x52, 0x65, 0x6c,
  0x75, 0x3b, 0x73, 0x65, 0x71, 0x75, 0x65, 0x6e, 0x74, 0x69, 0x61, 0x6c,
  0x2f, 0x64, 0x65, 0x6e, 0x73, 0x65, 0x2f, 0x42, 0x69, 0x61, 0x73, 0x41,
  0x64, 0x64, 0x00, 0x00, 0x02, 0x00, 0x00, 0x00, 0x01, 0x00, 0x00, 0x00,
  0x10, 0x00, 0x00, 0x00, 0x72, 0xf6, 0xff, 0xff, 0x00, 0x00, 0x00, 0x01,
  0x18, 0x00, 0x00, 0x00, 0x20, 0x00, 0x00, 0x00, 0x3c, 0x00, 0x00, 0x00,
  0x0f, 0x00, 0x00, 0x00, 0x00, 0x00, 0x00, 0x09, 0x60, 0x00, 0x00, 0x00,
  0x02, 0x00, 0x00, 0x00, 0xff, 0xff, 0xff, 0xff, 0x10, 0x00, 0x00, 0x00,
  0x54, 0xf6, 0xff, 0xff, 0x08, 0x00, 0x00, 0x00, 0x10, 0x00, 0x00, 0x00,
  0x01, 0x00, 0x00, 0x00, 0x80, 0xff, 0xff, 0xff, 0xff, 0xff, 0xff, 0xff,
  0x01, 0x00, 0x00, 0x00, 0xa5, 0x30, 0x62, 0x3c, 0x28, 0x00, 0x00, 0x00,
  0x73, 0x65, 0x71, 0x75, 0x65, 0x6e, 0x74, 0x69, 0x61, 0x6c, 0x2f, 0x67,
  0x6c, 0x6f, 0x62, 0x61, 0x6c, 0x5f, 0x61, 0x76, 0x65, 0x72, 0x61, 0x67,
  0x65, 0x5f, 0x70, 0x6f, 0x6f, 0x6c, 0x69, 0x6e, 0x67, 0x32, 0x64, 0x2f,
  0x4d, 0x65, 0x61, 0x6e, 0x00, 0x00, 0x00, 0x00, 0x02, 0x00, 0x00, 0x00,
  0x01, 0x00, 0x00, 0x00, 0x10, 0x00, 0x00, 0x00, 0xfa, 0xf6, 0xff, 0xff,
  0x00, 0x00, 0x00, 0x01, 0x18, 0x00, 0x00, 0x00, 0x28, 0x00, 0x00, 0x00,
  0x44, 0x00, 0x00, 0x00, 0x0e, 0x00, 0x00, 0x00, 0x00, 0x00, 0x00, 0x09,
  0x60, 0x00, 0x00, 0x00, 0x04, 0x00, 0x00, 0x00, 0xff, 0xff, 0xff, 0xff,
  0x18, 0x00, 0x00, 0x00, 0x03, 0x00, 0x00, 0x00, 0x10, 0x00, 0x00, 0x00,
  0xe4, 0xf6, 0xff, 0xff, 0x08, 0x00, 0x00, 0x00, 0x10, 0x00, 0x00, 0x00,
  0x01, 0x00, 0x00, 0x00, 0x80, 0xff, 0xff, 0xff, 0xff, 0xff, 0xff, 0xff,
  0x01, 0x00, 0x00, 0x00, 0x49, 0xab, 0x1d, 0x3d, 0x22, 0x00, 0x00, 0x00,
  0x73, 0x65, 0x71, 0x75, 0x65, 0x6e, 0x74, 0x69, 0x61, 0x6c, 0x2f, 0x6d,
  0x61, 0x78, 0x5f, 0x70, 0x6f, 0x6f, 0x6c, 0x69, 0x6e, 0x67, 0x32, 0x64,
  0x5f, 0x31, 0x2f, 0x4d, 0x61, 0x78, 0x50, 0x6f, 0x6f, 0x6c, 0x00, 0x00,
  0x04, 0x00, 0x00, 0x00, 0x01, 0x00, 0x00, 0x00, 0x18, 0x00, 0x00, 0x00,
  0x03, 0x00, 0x00, 0x00, 0x10, 0x00, 0x00, 0x00, 0x8a, 0xf7, 0xff, 0xff,
  0x00, 0x00, 0x00, 0x01, 0x18, 0x00, 0x00, 0x00, 0x28, 0x00, 0x00, 0x00,
  0x44, 0x00, 0x00, 0x00, 0x0d, 0x00, 0x00, 0x00, 0x00, 0x00, 0x00, 0x09,
  0xb8, 0x00, 0x00, 0x00, 0x04, 0x00, 0x00, 0x00, 0xff, 0xff, 0xff, 0xff,
  0x31, 0x00, 0x00, 0x00, 0x06, 0x00, 0x00, 0x00, 0x10, 0x00, 0x00, 0x00,
  0x74, 0xf7, 0xff, 0xff, 0x08, 0x00, 0x00, 0x00, 0x10, 0x00, 0x00, 0x00,
  0x01, 0x00, 0x00, 0x00, 0x80, 0xff, 0xff, 0xff, 0xff, 0xff, 0xff, 0xff,
  0x01, 0x00, 0x00, 0x00, 0x49, 0xab, 0x1d, 0x3d, 0x7a, 0x00, 0x00, 0x00,
  0x73, 0x65, 0x71, 0x75, 0x65, 0x6e, 0x74, 0x69, 0x61, 0x6c, 0x2f, 0x63,
  0x6f, 0x6e, 0x76, 0x32, 0x64, 0x5f, 0x31, 0x2f, 0x52, 0x65, 0x6c, 0x75,
  0x3b, 0x73, 0x65, 0x71, 0x75, 0x65, 0x6e, 0x74, 0x69, 0x61, 0x6c, 0x2f,
  0x63, 0x6f, 0x6e, 0x76, 0x32, 0x64, 0x5f, 0x31, 0x2f, 0x42, 0x69, 0x61,
  0x73, 0x41, 0x64, 0x64, 0x3b, 0x73, 0x65, 0x71, 0x75, 0x65, 0x6e, 0x74,
  0x69, 0x61, 0x6c, 0x2f, 0x63, 0x6f, 0x6e, 0x76, 0x32, 0x64, 0x5f, 0x31,
  0x2f, 0x43, 0x6f, 0x6e, 0x76, 0x32, 0x44, 0x3b, 0x73, 0x65, 0x71, 0x75,
  0x65, 0x6e, 0x74, 0x69, 0x61, 0x6c, 0x2f, 0x63, 0x6f, 0x6e, 0x76, 0x32,
  0x64, 0x5f, 0x31, 0x2f, 0x42, 0x69, 0x61, 0x73, 0x41, 0x64, 0x64, 0x2f,
  0x52, 0x65, 0x61, 0x64, 0x56, 0x61, 0x72, 0x69, 0x61, 0x62, 0x6c, 0x65,
  0x4f, 0x70, 0x00, 0x00, 0x04, 0x00, 0x00, 0x00, 0x01, 0x00, 0x00, 0x00,
  0x31, 0x00, 0x00, 0x00, 0x06, 0x00, 0x00, 0x00, 0x10, 0x00, 0x00, 0x00,
  0x72, 0xf8, 0xff, 0xff, 0x00, 0x00, 0x00, 0x01, 0x18, 0x00, 0x00, 0x00,
  0x28, 0x00, 0x00, 0x00, 0x44, 0x00, 0x00, 0x00, 0x0c, 0x00, 0x00, 0x00,
  0x00, 0x00, 0x00, 0x09, 0x60, 0x00, 0x00, 0x00, 0x04, 0x00, 0x00, 0x00,
  0xff, 0xff, 0xff, 0xff, 0x31, 0x00, 0x00, 0x00, 0x06, 0x00, 0x00, 0x00,
  0x08, 0x00, 0x00, 0x00, 0x5c, 0xf8, 0xff, 0xff, 0x08, 0x00, 0x00, 0x00,
  0x10, 0x00, 0x00, 0x00, 0x01, 0x00, 0x00, 0x00, 0x80, 0xff, 0xff, 0xff,
  0xff, 0xff, 0xff, 0xff, 0x01, 0x00, 0x00, 0x00, 0x25, 0x27, 0x54, 0x3c,
  0x20, 0x00, 0x00, 0x00, 0x73, 0x65, 0x71, 0x75, 0x65, 0x6e, 0x74, 0x69,
  0x61, 0x6c, 0x2f, 0x6d, 0x61, 0x78, 0x5f, 0x70, 0x6f, 0x6f, 0x6c, 0x69,
  0x6e, 0x67, 0x32, 0x64, 0x2f, 0x4d, 0x61, 0x78, 0x50, 0x6f, 0x6f, 0x6c,
  0x00, 0x00, 0x00, 0x00, 0x04, 0x00, 0x00, 0x00, 0x01, 0x00, 0x00, 0x00,
  0x31, 0x00, 0x00, 0x00, 0x06, 0x00, 0x00, 0x00, 0x08, 0x00, 0x00, 0x00,
  0x02, 0xf9, 0xff, 0xff, 0x00, 0x00, 0x00, 0x01, 0x18, 0x00, 0x00, 0x00,
  0x28, 0x00, 0x00, 0x00, 0x44, 0x00, 0x00, 0x00, 0x0b, 0x00, 0x00, 0x00,
  0x00, 0x00, 0x00, 0x09, 0xb0, 0x00, 0x00, 0x00, 0x04, 0x00, 0x00, 0x00,
  0xff, 0xff, 0xff, 0xff, 0x62, 0x00, 0x00, 0x00, 0x0d, 0x00, 0x00, 0x00,
  0x08, 0x00, 0x00, 0x00, 0xec, 0xf8, 0xff, 0xff, 0x08, 0x00, 0x00, 0x00,
  0x10, 0x00, 0x00, 0x00, 0x01, 0x00, 0x00, 0x00, 0x80, 0xff, 0xff, 0xff,
  0xff, 0xff, 0xff, 0xff, 0x01, 0x00, 0x00, 0x00, 0x25, 0x27, 0x54, 0x3c,
  0x72, 0x00, 0x00, 0x00, 0x73, 0x65, 0x71, 0x75, 0x65, 0x6e, 0x74, 0x69,
  0x61, 0x6c, 0x2f, 0x63, 0x6f, 0x6e, 0x76, 0x32, 0x64, 0x2f, 0x52, 0x65,
  0x6c, 0x75, 0x3b, 0x73, 0x65, 0x71, 0x75, 0x65, 0x6e, 0x74, 0x69, 0x61,
  0x6c, 0x2f, 0x63, 0x6f, 0x6e, 0x76, 0x32, 0x64, 0x2f, 0x42, 0x69, 0x61,
  0x73, 0x41, 0x64, 0x64, 0x3b, 0x73, 0x65, 0x71, 0x75, 0x65, 0x6e, 0x74,
  0x69, 0x61, 0x6c, 0x2f, 0x63, 0x6f, 0x6e, 0x76, 0x32, 0x64, 0x2f, 0x43,
  0x6f, 0x6e, 0x76, 0x32, 0x44, 0x3b, 0x73, 0x65, 0x71, 0x75, 0x65, 0x6e,
  0x74, 0x69, 0x61, 0x6c, 0x2f, 0x63, 0x6f, 0x6e, 0x76, 0x32, 0x64, 0x2f,
  0x42, 0x69, 0x61, 0x73, 0x41, 0x64, 0x64, 0x2f, 0x52, 0x65, 0x61, 0x64,
  0x56, 0x61, 0x72, 0x69, 0x61, 0x62, 0x6c, 0x65, 0x4f, 0x70, 0x00, 0x00,
  0x04, 0x00, 0x00, 0x00, 0x01, 0x00, 0x00, 0x00, 0x62, 0x00, 0x00, 0x00,
  0x0d, 0x00, 0x00, 0x00, 0x08, 0x00, 0x00, 0x00, 0x66, 0xfa, 0xff, 0xff,
  0x00, 0x00, 0x00, 0x01, 0x14, 0x00, 0x00, 0x00, 0x88, 0x00, 0x00, 0x00,
  0x0a, 0x00, 0x00, 0x00, 0x00, 0x00, 0x00, 0x09, 0x9c, 0x00, 0x00, 0x00,
  0xb4, 0xf9, 0xff, 0xff, 0x08, 0x00, 0x00, 0x00, 0x4c, 0x00, 0x00, 0x00,
  0x08, 0x00, 0x00, 0x00, 0x00, 0x00, 0x00, 0x00, 0x00, 0x00, 0x00, 0x00,
  0x00, 0x00, 0x00, 0x00, 0x00, 0x00, 0x00, 0x00, 0x00, 0x00, 0x00, 0x00,
  0x00, 0x00, 0x00, 0x00, 0x00, 0x00, 0x00, 0x00, 0x00, 0x00, 0x00, 0x00,
  0x00, 0x00, 0x00, 0x00, 0x00, 0x00, 0x00, 0x00, 0x00, 0x00, 0x00, 0x00,
  0x00, 0x00, 0x00, 0x00, 0x00, 0x00, 0x00, 0x00, 0x00, 0x00, 0x00, 0x00,
  0x00, 0x00, 0x00, 0x00, 0x00, 0x00, 0x00, 0x00, 0x00, 0x00, 0x00, 0x00,
  0x08, 0x00, 0x00, 0x00, 0xd1, 0x99, 0x95, 0x3b, 0x08, 0x36, 0x57, 0x3b,
  0x0c, 0x61, 0xb5, 0x3b, 0xfd, 0x60, 0x93, 0x3b, 0x05, 0x1b, 0xbb, 0x3b,
  0xb8, 0x40, 0xb6, 0x3b, 0x93, 0xc8, 0xce, 0x3b, 0x61, 0xed, 0x7a, 0x3b,
  0x18, 0x00, 0x00, 0x00, 0x73, 0x65, 0x71, 0x75, 0x65, 0x6e, 0x74, 0x69,
  0x61, 0x6c, 0x2f, 0x63, 0x6f, 0x6e, 0x76, 0x32, 0x64, 0x2f, 0x43, 0x6f,
  0x6e, 0x76, 0x32, 0x44, 0x00, 0x00, 0x00, 0x00, 0x04, 0x00, 0x00, 0x00,
  0x08, 0x00, 0x00, 0x00, 0x03, 0x00, 0x00, 0x00, 0x03, 0x00, 0x00, 0x00,
  0x01, 0x00, 0x00, 0x00, 0x2e, 0xfb, 0xff, 0xff, 0x00, 0x00, 0x00, 0x01,
  0x14, 0x00, 0x00, 0x00, 0x84, 0x00, 0x00, 0x00, 0x09, 0x00, 0x00, 0x00,
  0x00, 0x00, 0x00, 0x02, 0xa8, 0x00, 0x00, 0x00, 0x7c, 0xfa, 0xff, 0xff,
  0x08, 0x00, 0x00, 0x00, 0x48, 0x00, 0x00, 0x00, 0x08, 0x00, 0x00, 0x00,
  0x00, 0x00, 0x00, 0x00, 0x00, 0x00, 0x00, 0x00, 0x00, 0x00, 0x00, 0x00,
  0x00, 0x00, 0x00, 0x00, 0x00, 0x00, 0x00, 0x00, 0x00, 0x00, 0x00, 0x00,
  0x00, 0x00, 0x00, 0x00, 0x00, 0x00, 0x00, 0x00, 0x00, 0x00, 0x00, 0x00,
  0x00, 0x00, 0x00, 0x00, 0x00, 0x00, 0x00, 0x00, 0x00, 0x00, 0x00, 0x00,
  0x00, 0x00, 0x00, 0x00, 0x00, 0x00, 0x00, 0x00, 0x00, 0x00, 0x00, 0x00,
  0x00, 0x00, 0x00, 0x00, 0x08, 0x00, 0x00, 0x00, 0xa1, 0x03, 0x15, 0x38,
  0xfa, 0x5d, 0xd6, 0x37, 0xf5, 0xaa, 0x34, 0x38, 0x08, 0xcd, 0x12, 0x38,
  0x2e, 0x5f, 0x3a, 0x38, 0xc0, 0x89, 0x35, 0x38, 0xfb, 0xf8, 0x4d, 0x38,
  0x78, 0xf1, 0xf9, 0x37, 0x28, 0x00, 0x00, 0x00, 0x73, 0x65, 0x71, 0x75,
  0x65, 0x6e, 0x74, 0x69, 0x61, 0x6c, 0x2f, 0x63, 0x6f, 0x6e, 0x76, 0x32,
  0x64, 0x2f, 0x42, 0x69, 0x61, 0x73, 0x41, 0x64, 0x64, 0x2f, 0x52, 0x65,
  0x61, 0x64, 0x56, 0x61, 0x72, 0x69, 0x61, 0x62, 0x6c, 0x65, 0x4f, 0x70,
  0x00, 0x00, 0x00, 0x00, 0x01, 0x00, 0x00, 0x00, 0x08, 0x00, 0x00, 0x00,
  0xf6, 0xfb, 0xff, 0xff, 0x00, 0x00, 0x00, 0x01, 0x14, 0x00, 0x00, 0x00,
  0xe8, 0x00, 0x00, 0x00, 0x08, 0x00, 0x00, 0x00, 0x00, 0x00, 0x00, 0x09,
  0xfc, 0x00, 0x00, 0x00, 0x44, 0xfb, 0xff, 0xff, 0x08, 0x00, 0x00, 0x00,
  0x8c, 0x00, 0x00, 0x00, 0x10, 0x00, 0x00, 0x00, 0x00, 0x00, 0x00, 0x00,
  0x00, 0x00, 0x00, 0x00, 0x00, 0x00, 0x00, 0x00, 0x00, 0x00, 0x00, 0x00,
  0x00, 0x00, 0x00, 0x00, 0x00, 0x00, 0x00, 0x00, 0x00, 0x00, 0x00, 0x00,
  0x00, 0x00, 0x00, 0x00, 0x00, 0x00, 0x00, 0x00, 0x00, 0x00, 0x00, 0x00,
  0x00, 0x00, 0x00, 0x00, 0x00, 0x00, 0x00, 0x00, 0x00, 0x00, 0x00, 0x00,
  0x00, 0x00, 0x00, 0x00, 0x00, 0x00, 0x00, 0x00, 0x00, 0x00, 0x00, 0x00,
  0x00, 0x00, 0x00, 0x00, 0x00, 0x00, 0x00, 0x00, 0x00, 0x00, 0x00, 0x00,
  0x00, 0x00, 0x00, 0x00, 0x00, 0x00, 0x00, 0x00, 0x00, 0x00, 0x00, 0x00,
  0x00, 0x00, 0x00, 0x00, 0x00, 0x00, 0x00, 0x00, 0x00, 0x00, 0x00, 0x00,
  0x00, 0x00, 0x00, 0x00, 0x00, 0x00, 0x00, 0x00, 0x00, 0x00, 0x00, 0x00,
  0x00, 0x00, 0x00, 0x00, 0x00, 0x00, 0x00, 0x00, 0x00, 0x00, 0x00, 0x00,
  0x00, 0x00, 0x00, 0x00, 0x00, 0x00, 0x00, 0x00, 0x10, 0x00, 0x00, 0x00,
  0x86, 0x87, 0x86, 0x3b, 0xa6, 0xad, 0x0e, 0x3b, 0xdb, 0x00, 0x6f, 0x3b,
  0xf7, 0xaa, 0x96, 0x3b, 0x31, 0x22, 0x89, 0x3b, 0xd0, 0x5d, 0x7c, 0x3b,
  0x2b, 0x4a, 0x99, 0x3b, 0x5a, 0x87, 0x83, 0x3b, 0x8b, 0xde, 0x7e, 0x3b,
  0x1f, 0x36, 0x5b, 0x3b, 0x14, 0xd2, 0x40, 0x3b, 0xba, 0xf0, 0xaa, 0x3b,
  0xe7, 0x1a, 0x8f, 0x3b, 0x79, 0x72, 0xc0, 0x3a, 0xc4, 0xc6, 0x43, 0x3b,
  0x5b, 0x75, 0xb9, 0x3a, 0x1a, 0x00, 0x00, 0x00, 0x73, 0x65, 0x71, 0x75,
  0x65, 0x6e, 0x74, 0x69, 0x61, 0x6c, 0x2f, 0x63, 0x6f, 0x6e, 0x76, 0x32,
  0x64, 0x5f, 0x31, 0x2f, 0x43, 0x6f, 0x6e, 0x76, 0x32, 0x44, 0x00, 0x00,
  0x04, 0x00, 0x00, 0x00, 0x10, 0x00, 0x00, 0x00, 0x03, 0x00, 0x00, 0x00,
  0x03, 0x00, 0x00, 0x00, 0x08, 0x00, 0x00, 0x00, 0x1e, 0xfd, 0xff, 0xff,
  0x00, 0x00, 0x00, 0x01, 0x14, 0x00, 0x00, 0x00, 0xe4, 0x00, 0x00, 0x00,
  0x07, 0x00, 0x00, 0x00, 0x00, 0x00, 0x00, 0x02, 0x08, 0x01, 0x00, 0x00,
  0x6c, 0xfc, 0xff, 0xff, 0x08, 0x00, 0x00, 0x00, 0x88, 0x00, 0x00, 0x00,
  0x10, 0x00, 0x00, 0x00, 0x00, 0x00, 0x00, 0x00, 0x00, 0x00, 0x00, 0x00,
  0x00, 0x00, 0x00, 0x00, 0x00, 0x00, 0x00, 0x00, 0x00, 0x00, 0x00, 0x00,
  0x00, 0x00, 0x00, 0x00, 0x00, 0x00, 0x00, 0x00, 0x00, 0x00, 0x00, 0x00,
  0x00, 0x00, 0x00, 0x00, 0x00, 0x00, 0x00, 0x00, 0x00, 0x00, 0x00, 0x00,
  0x00, 0x00, 0x00, 0x00, 0x00, 0x00, 0x00, 0x00, 0x00, 0x00, 0x00, 0x00,
  0x00, 0x00, 0x00, 0x00, 0x00, 0x00, 0x00, 0x00, 0x00, 0x00, 0x00, 0x00,
  0x00, 0x00, 0x00, 0x00, 0x00, 0x00, 0x00, 0x00, 0x00, 0x00, 0x00, 0x00,
  0x00, 0x00, 0x00, 0x00, 0x00, 0x00, 0x00, 0x00, 0x00, 0x00, 0x00, 0x00,
  0x00, 0x00, 0x00, 0x00, 0x00, 0x00, 0x00, 0x00, 0x00, 0x00, 0x00, 0x00,
  0x00, 0x00, 0x00, 0x00, 0x00, 0x00, 0x00, 0x00, 0x00, 0x00, 0x00, 0x00,
  0x00, 0x00, 0x00, 0x00, 0x00, 0x00, 0x00, 0x00, 0x00, 0x00, 0x00, 0x00,
  0x10, 0x00, 0x00, 0x00, 0x9a, 0xf9, 0x5e, 0x38, 0x3d, 0x7b, 0xec, 0x37,
  0x41, 0x11, 0x46, 0x38, 0x3d, 0xb9, 0x79, 0x38, 0x91, 0x4a, 0x63, 0x38,
  0x47, 0x24, 0x51, 0x38, 0xb8, 0x11, 0x7e, 0x38, 0x66, 0x00, 0x5a, 0x38,
  0x44, 0x37, 0x53, 0x38, 0x57, 0xaa, 0x35, 0x38, 0x74, 0xcb, 0x1f, 0x38,
  0x7d, 0xa9, 0x8d, 0x38, 0x52, 0x30, 0x6d, 0x38, 0x39, 0x7c, 0x9f, 0x37,
  0x8a, 0x3e, 0x22, 0x38, 0x8b, 0xb1, 0x99, 0x37, 0x2a, 0x00, 0x00, 0x00,
  0x73, 0x65, 0x71, 0x75, 0x65, 0x6e, 0x74, 0x69, 0x61, 0x6c, 0x2f, 0x63,
  0x6f, 0x6e, 0x76, 0x32, 0x64, 0x5f, 0x31, 0x2f, 0x42, 0x69, 0x61, 0x73,
  0x41, 0x64, 0x64, 0x2f, 0x52, 0x65, 0x61, 0x64, 0x56, 0x61, 0x72, 0x69,
  0x61, 0x62, 0x6c, 0x65, 0x4f, 0x70, 0x00, 0x00, 0x01, 0x00, 0x00, 0x00,
  0x10, 0x00, 0x00, 0x00, 0x46, 0xfe, 0xff, 0xff, 0x00, 0x00, 0x00, 0x01,
  0x14, 0x00, 0x00, 0x00, 0x34, 0x00, 0x00, 0x00, 0x06, 0x00, 0x00, 0x00,
  0x00, 0x00, 0x00, 0x09, 0x44, 0x00, 0x00, 0x00, 0x94, 0xfd, 0xff, 0xff,
  0x08, 0x00, 0x00, 0x00, 0x14, 0x00, 0x00, 0x00, 0x01, 0x00, 0x00, 0x00,
  0x00, 0x00, 0x00, 0x00, 0x00, 0x00, 0x00, 0x00, 0x00, 0x00, 0x00, 0x00,
  0x01, 0x00, 0x00, 0x00, 0x30, 0xbf, 0x18, 0x3c, 0x17, 0x00, 0x00, 0x00,
  0x73, 0x65, 0x71, 0x75, 0x65, 0x6e, 0x74, 0x69, 0x61, 0x6c, 0x2f, 0x64,
  0x65, 0x6e, 0x73, 0x65, 0x2f, 0x4d, 0x61, 0x74, 0x4d, 0x75, 0x6c, 0x00,
  0x02, 0x00, 0x00, 0x00, 0x10, 0x00, 0x00, 0x00, 0x10, 0x00, 0x00, 0x00,
  0xae, 0xfe, 0xff, 0xff, 0x00, 0x00, 0x00, 0x01, 0x14, 0x00, 0x00, 0x00,
  0x30, 0x00, 0x00, 0x00, 0x05, 0x00, 0x00, 0x00, 0x00, 0x00, 0x00, 0x02,
  0x50, 0x00, 0x00, 0x00, 0xfc, 0xfd, 0xff, 0xff, 0x08, 0x00, 0x00, 0x00,
  0x10, 0x00, 0x00, 0x00, 0x01, 0x00, 0x00, 0x00, 0x00, 0x00, 0x00, 0x00,
  0x00, 0x00, 0x00, 0x00, 0x01, 0x00, 0x00, 0x00, 0xcf, 0xf5, 0x06, 0x39,
  0x27, 0x00, 0x00, 0x00, 0x73, 0x65, 0x71, 0x75, 0x65, 0x6e, 0x74, 0x69,
  0x61, 0x6c, 0x2f, 0x64, 0x65, 0x6e, 0x73, 0x65, 0x2f, 0x42, 0x69, 0x61,
  0x73, 0x41, 0x64, 0x64, 0x2f, 0x52, 0x65, 0x61, 0x64, 0x56, 0x61, 0x72,
  0x69, 0x61, 0x62, 0x6c, 0x65, 0x4f, 0x70, 0x00, 0x01, 0x00, 0x00, 0x00,
  0x10, 0x00, 0x00, 0x00, 0x1e, 0xff, 0xff, 0xff, 0x00, 0x00, 0x00, 0x01,
  0x14, 0x00, 0x00, 0x00, 0x30, 0x00, 0x00, 0x00, 0x04, 0x00, 0x00, 0x00,
  0x00, 0x00, 0x00, 0x09, 0x44, 0x00, 0x00, 0x00, 0x6c, 0xfe, 0xff, 0xff,
  0x08, 0x00, 0x00, 0x00, 0x10, 0x00, 0x00, 0x00, 0x01, 0x00, 0x00, 0x00,
  0x00, 0x00, 0x00, 0x00, 0x00, 0x00, 0x00, 0x00, 0x01, 0x00, 0x00, 0x00,
  0xfd, 0x23, 0x3c, 0x3c, 0x19, 0x00, 0x00, 0x00, 0x73, 0x65, 0x71, 0x75,
  0x65, 0x6e, 0x74, 0x69, 0x61, 0x6c, 0x2f, 0x64, 0x65, 0x6e, 0x73, 0x65,
  0x5f, 0x31, 0x2f, 0x4d, 0x61, 0x74, 0x4d, 0x75, 0x6c, 0x00, 0x00, 0x00,
  0x02, 0x00, 0x00, 0x00, 0x01, 0x00, 0x00, 0x00, 0x10, 0x00, 0x00, 0x00,
  0x86, 0xff, 0xff, 0xff, 0x00, 0x00, 0x00, 0x01, 0x14, 0x00, 0x00, 0x00,
  0x34, 0x00, 0x00, 0x00, 0x03, 0x00, 0x00, 0x00, 0x00, 0x00, 0x00, 0x02,
  0x58, 0x00, 0x00, 0x00, 0xd4, 0xfe, 0xff, 0xff, 0x08, 0x00, 0x00, 0x00,
  0x14, 0x00, 0x00, 0x00, 0x01, 0x00, 0x00, 0x00, 0x00, 0x00, 0x00, 0x00,
  0x00, 0x00, 0x00, 0x00, 0x00, 0x00, 0x00, 0x00, 0x01, 0x00, 0x00, 0x00,
  0x8b, 0xec, 0xf7, 0x38, 0x29, 0x00, 0x00, 0x00, 0x73, 0x65, 0x71, 0x75,
  0x65, 0x6e, 0x74, 0x69, 0x61, 0x6c, 0x2f, 0x64, 0x65, 0x6e, 0x73, 0x65,
  0x5f, 0x31, 0x2f, 0x42, 0x69, 0x61, 0x73, 0x41, 0x64, 0x64, 0x2f, 0x52,
  0x65, 0x61, 0x64, 0x56, 0x61, 0x72, 0x69, 0x61, 0x62, 0x6c, 0x65, 0x4f,
  0x70, 0x00, 0x00, 0x00, 0x01, 0x00, 0x00, 0x00, 0x01, 0x00, 0x00, 0x00,
  0x00, 0x00, 0x16, 0x00, 0x1c, 0x00, 0x18, 0x00, 0x17, 0x00, 0x10, 0x00,
  0x0c, 0x00, 0x08, 0x00, 0x00, 0x00, 0x00, 0x00, 0x00, 0x00, 0x07, 0x00,
  0x16, 0x00, 0x00, 0x00, 0x00, 0x00, 0x00, 0x01, 0x18, 0x00, 0x00, 0x00,
  0x18, 0x00, 0x00, 0x00, 0x02, 0x00, 0x00, 0x00, 0x00, 0x00, 0x00, 0x02,
  0x4c, 0x00, 0x00, 0x00, 0x04, 0x00, 0x04, 0x00, 0x04, 0x00, 0x00, 0x00,
  0x3a, 0x00, 0x00, 0x00, 0x73, 0x65, 0x71, 0x75, 0x65, 0x6e, 0x74, 0x69,
  0x61, 0x6c, 0x2f, 0x67, 0x6c, 0x6f, 0x62, 0x61, 0x6c, 0x5f, 0x61, 0x76,
  0x65, 0x72, 0x61, 0x67, 0x65, 0x5f, 0x70, 0x6f, 0x6f, 0x6c, 0x69, 0x6e,
  0x67, 0x32, 0x64, 0x2f, 0x4d, 0x65, 0x61, 0x6e, 0x2f, 0x72, 0x65, 0x64,
  0x75, 0x63, 0x74, 0x69, 0x6f, 0x6e, 0x5f, 0x69, 0x6e, 0x64, 0x69, 0x63,
  0x65, 0x73, 0x00, 0x00, 0x01, 0x00, 0x00, 0x00, 0x02, 0x00, 0x00, 0x00,
  0x00, 0x00, 0x16, 0x00, 0x20, 0x00, 0x1c, 0x00, 0x1b, 0x00, 0x14, 0x00,
  0x10, 0x00, 0x0c, 0x00, 0x00, 0x00, 0x00, 0x00, 0x08, 0x00, 0x07, 0x00,
  0x16, 0x00, 0x00, 0x00, 0x00, 0x00, 0x00, 0x01, 0x18, 0x00, 0x00, 0x00,
  0x34, 0x00, 0x00, 0x00, 0x50, 0x00, 0x00, 0x00, 0x01, 0x00, 0x00, 0x00,
  0x00, 0x00, 0x00, 0x09, 0x64, 0x00, 0x00, 0x00, 0x04, 0x00, 0x00, 0x00,
  0xff, 0xff, 0xff, 0xff, 0x62, 0x00, 0x00, 0x00, 0x0d, 0x00, 0x00, 0x00,
  0x01, 0x00, 0x00, 0x00, 0x0c, 0x00, 0x0c, 0x00, 0x00, 0x00, 0x00, 0x00,
  0x08, 0x00, 0x04, 0x00, 0x0c, 0x00, 0x00, 0x00, 0x08, 0x00, 0x00, 0x00,
  0x10, 0x00, 0x00, 0x00, 0x01, 0x00, 0x00, 0x00, 0xff, 0xff, 0xff, 0xff,
  0xff, 0xff, 0xff, 0xff, 0x01, 0x00, 0x00, 0x00, 0xff, 0xfe, 0xfe, 0x3b,
  0x19, 0x00, 0x00, 0x00, 0x73, 0x65, 0x72, 0x76, 0x69, 0x6e, 0x67, 0x5f,
  0x64, 0x65, 0x66, 0x61, 0x75, 0x6c, 0x74, 0x5f, 0x69, 0x6e, 0x70, 0x75,
  0x74, 0x5f, 0x31, 0x3a, 0x30, 0x00, 0x00, 0x00, 0x04, 0x00, 0x00, 0x00,
  0x01, 0x00, 0x00, 0x00, 0x62, 0x00, 0x00, 0x00, 0x0d, 0x00, 0x00, 0x00,
  0x01, 0x00, 0x00, 0x00, 0x05, 0x00, 0x00, 0x00, 0x60, 0x00, 0x00, 0x00,
  0x40, 0x00, 0x00, 0x00, 0x2c, 0x00, 0x00, 0x00, 0x18, 0x00, 0x00, 0x00,
  0x04, 0x00, 0x00, 0x00, 0xc0, 0xff, 0xff, 0xff, 0x0e, 0x00, 0x00, 0x00,
  0x02, 0x00, 0x00, 0x00, 0x00, 0x00, 0x00, 0x0e, 0xd0, 0xff, 0xff, 0xff,
  0x09, 0x00, 0x00, 0x00, 0x04, 0x00, 0x00, 0x00, 0x00, 0x00, 0x00, 0x09,
  0xe0, 0xff, 0xff, 0xff, 0x28, 0x00, 0x00, 0x00, 0x02, 0x00, 0x00, 0x00,
  0x00, 0x00, 0x00, 0x28, 0xf0, 0xff, 0xff, 0xff, 0x11, 0x00, 0x00, 0x00,
  0x02, 0x00, 0x00, 0x00, 0x00, 0x00, 0x00, 0x11, 0x0c, 0x00, 0x10, 0x00,
  0x0f, 0x00, 0x00, 0x00, 0x08, 0x00, 0x04, 0x00, 0x0c, 0x00, 0x00, 0x00,
  0x03, 0x00, 0x00, 0x00, 0x03, 0x00, 0x00, 0x00, 0x00, 0x00, 0x00, 0x03
};
unsigned int ___model_int8_tflite_len = 6192;
